<unk>	0
<s>	0
</s>	0
▁i	-0
▁a	-1
in	-2
re	-3
ou	-4
▁f	-5
▁s	-6
el	-7
at	-8
on	-9
▁t	-10
ing	-11
▁w	-12
es	-13
▁c	-14
▁d	-15
▁fe	-16
er	-17
▁feel	-18
?,	-19
al	-20
it	-21
en	-22
▁b	-23
an	-24
▁an	-25
▁p	-26
▁y	-27
or	-28
▁m	-29
▁you	-30
ar	-31
▁l	-32
hat	-33
▁h	-34
ed	-35
▁and	-36
ti	-37
▁in	-38
st	-39
▁st	-40
▁e	-41
▁what	-42
▁is	-43
il	-44
ro	-45
ac	-46
out	-47
▁o	-48
▁do	-49
▁ab	-50
▁about	-51
ow	-52
ec	-53
▁re	-54
▁to	-55
ly	-56
▁g	-57
le	-58
om	-59
ke	-60
ent	-61
ce	-62
ion	-63
▁th	-64
▁li	-65
ve	-66
is	-67
ic	-68
▁n	-69
et	-70
un	-71
ure	-72
us	-73
th	-74
▁your	-75
mp	-76
ith	-77
▁like	-78
ation	-79
as	-80
ear	-81
▁with	-82
ra	-83
id	-84
▁ex	-85
ul	-86
rac	-87
▁how	-88
▁con	-89
ess	-90
res	-91
tion	-92
ver	-93
▁can	-94
Yes	-95
▁by	-96
▁pro	-97
qu	-98
▁on	-99
ak	-100
art	-101
earn	-102
oc	-103
als	-104
ous	-105
od	-106
all	-107
uc	-108
ep	-109
▁of	-110
are	-111
ay	-112
ress	-113
▁bu	-114
ate	-115
▁the	-116
▁learn	-117
ort	-118
▁exp	-119
ad	-120
ter	-121
im	-122
ain	-123
ant	-124
ity	-125
ist	-126
ail	-127
▁imp	-128
ore	-129
▁com	-130
ies	-131
racti	-132
ab	-133
▁sm	-134
xi	-135
▁be	-136
▁ne	-137
ts	-138
▁un	-139
ractice	-140
▁go	-141
▁wh	-142
ol	-143
▁anxi	-144
ers	-145
ment	-146
St	-147
gh	-148
▁small	-149
ild	-150
▁me	-151
▁anxious	-152
ch	-153
ir	-154
ri	-155
ge	-156
op	-157
pp	-158
▁sp	-159
▁hel	-160
▁ins	-161
▁over	-162
am	-163
ks	-164
▁for	-165
ally	-166
▁learning	-167
os	-168
▁sh	-169
▁are	-170
▁tim	-171
ite	-172
▁dis	-173
Start	-174
av	-175
ie	-176
ful	-177
That	-178
▁equ	-179
▁disc	-180
▁help	-181
ut	-182
ind	-183
Practice	-184
ry	-185
med	-186
one	-187
▁en	-188
aily	-189
ocus	-190
▁daily	-191
▁insec	-192
wh	-193
▁I	-194
ive	-195
ork	-196
▁conf	-197
elf	-198
▁expl	-199
▁build	-200
▁insecure	-201
▁j	-202
ine	-203
reat	-204
whel	-205
▁time	-206
▁stress	-207
▁overwhel	-208
▁equals	-209
▁overwhelmed	-210
ect	-211
ome	-212
▁lo	-213
▁mo	-214
▁res	-215
Re	-216
ru	-217
ach	-218
and	-219
tiv	-220
▁ch	-221
▁de	-222
▁my	-223
ence	-224
ough	-225
ations	-226
ag	-227
ill	-228
oura	-229
▁impro	-230
▁stressed	-231
ip	-232
ur	-233
ged	-234
▁ac	-235
ings	-236
▁comp	-237
▁want	-238
eak	-239
uck	-240
▁al	-241
▁why	-242
▁stuck	-243
▁explain	-244
iv	-245
ot	-246
est	-247
rom	-248
▁pe	-249
kill	-250
▁oth	-251
ouraged	-252
▁discouraged	-253
▁v	-254
▁pl	-255
king	-256
tions	-257
ud	-258
▁A	-259
▁k	-260
end	-261
▁af	-262
▁he	-263
▁it	-264
fore	-265
▁don	-266
▁int	-267
▁one	-268
Focus	-269
▁skill	-270
▁before	-271
▁others	-272
Ch	-273
ake	-274
ong	-275
▁cod	-276
▁goals	-277
▁at	-278
avor	-279
cess	-280
▁tas	-281
ities	-282
▁from	-283
▁speak	-284
▁import	-285
iz	-286
mo	-287
▁1	-288
▁r	-289
ace	-290
ast	-291
ell	-292
▁or	-293
self	-294
▁dat	-295
▁favor	-296
▁start	-297
▁skills	-298
▁favorite	-299
▁important	-300
ee	-301
ld	-302
mun	-303
▁ha	-304
▁qu	-305
▁tasks	-306
▁improve	-307
se	-308
its	-309
les	-310
▁sc	-311
irst	-312
▁fun	-313
▁hab	-314
▁rel	-315
▁step	-316
em	-317
ff	-318
oy	-319
hip	-320
our	-321
rep	-322
row	-323
▁im	-324
ness	-325
used	-326
▁care	-327
▁first	-328
ack	-329
der	-330
ely	-331
low	-332
vie	-333
alth	-334
ople	-335
reak	-336
▁new	-337
▁str	-338
munic	-339
▁ment	-340
▁prog	-341
▁confused	-342
hy	-343
ide	-344
jec	-345
oun	-346
▁ad	-347
▁su	-348
▁te	-349
ance	-350
arly	-351
sist	-352
▁grow	-353
▁health	-354
▁people	-355
▁5	-356
ard	-357
imp	-358
ire	-359
yth	-360
akes	-361
tain	-362
view	-363
▁but	-364
▁sol	-365
▁good	-366
▁resp	-367
▁work	-368
uccess	-369
▁coding	-370
..	-371
Com	-372
cer	-373
ere	-374
erv	-375
now	-376
hing	-377
ions	-378
▁cal	-379
▁emo	-380
▁man	-381
▁data	-382
▁simp	-383
▁stor	-384
repare	-385
▁yourself	-386
up	-387
Try	-388
ble	-389
▁am	-390
rust	-391
ting	-392
ving	-393
▁bas	-394
▁not	-395
▁wor	-396
derst	-397
iness	-398
▁need	-399
▁simple	-400
derstand	-401
▁success	-402
It	-403
ap	-404
ig	-405
▁2	-406
ang	-407
ose	-408
▁cl	-409
▁ev	-410
▁pu	-411
Take	-412
ated	-413
ould	-414
raid	-415
rite	-416
▁per	-417
reate	-418
▁happ	-419
▁imag	-420
▁mind	-421
▁slow	-422
▁thin	-423
ailure	-424
Prepare	-425
▁afraid	-426
▁habits	-427
▁should	-428
▁consist	-429
▁practice	-430
▁speaking	-431
▁D	-432
▁S	-433
ght	-434
ial	-435
ise	-436
ize	-437
joy	-438
ons	-439
tic	-440
ared	-441
ical	-442
leep	-443
vers	-444
▁cle	-445
ently	-446
ience	-447
itive	-448
▁know	-449
▁nerv	-450
▁some	-451
▁creat	-452
▁inter	-453
▁confid	-454
▁emotion	-455
▁nervous	-456
fe	-457
▁M	-458
▁P	-459
▁W	-460
anc	-461
eek	-462
enc	-463
rit	-464
vel	-465
▁as	-466
▁op	-467
able	-468
omet	-469
oney	-470
▁bet	-471
▁dec	-472
▁mat	-473
▁soc	-474
Learn	-475
ython	-476
▁dist	-477
▁list	-478
▁mean	-479
▁read	-480
▁stud	-481
▁tell	-482
▁that	-483
▁basic	-484
▁enjoy	-485
certain	-486
▁though	-487
▁mentally	-488
▁progress	-489
Bu	-490
eb	-491
gg	-492
ib	-493
ob	-494
wn	-495
Use	-496
age	-497
ead	-498
ech	-499
get	-500
lic	-501
ues	-502
use	-503
ange	-504
chie	-505
ired	-506
sure	-507
work	-508
▁mul	-509
▁neg	-510
Build	-511
ility	-512
views	-513
▁calm	-514
▁life	-515
▁stay	-516
▁them	-517
▁motiv	-518
▁sleep	-519
▁tired	-520
▁better	-521
▁builds	-522
▁distrac	-523
▁uncertain	-524
mm	-525
ber	-526
edu	-527
for	-528
ren	-529
▁AI	-530
▁gr	-531
ency	-532
hips	-533
ound	-534
rack	-535
▁day	-536
▁gra	-537
▁out	-538
▁reg	-539
aking	-540
ining	-541
jects	-542
ments	-543
▁cont	-544
▁into	-545
▁kind	-546
▁week	-547
▁achie	-548
▁break	-549
▁focus	-550
▁negat	-551
▁study	-552
ilities	-553
istakes	-554
▁growth	-555
▁things	-556
▁unsure	-557
municate	-558
omething	-559
▁projects	-560
▁thoughts	-561
Pl	-562
Th	-563
gy	-564
▁4	-565
▁6	-566
▁8	-567
alk	-568
day	-569
hys	-570
ile	-571
ily	-572
ism	-573
tim	-574
▁po	-575
Plan	-576
echn	-577
ight	-578
line	-579
ning	-580
ream	-581
very	-582
▁adv	-583
▁app	-584
▁bec	-585
▁fin	-586
▁pat	-587
▁too	-588
onsib	-589
pport	-590
▁deep	-591
▁even	-592
▁lost	-593
▁plan	-594
▁self	-595
▁activ	-596
▁helps	-597
▁money	-598
▁financ	-599
▁convers	-600
▁thinking	-601
▁responsib	-602
▁something	-603
▁understand	-604
▁emotionally	-605
Be	-606
de	-607
du	-608
ms	-609
um	-610
▁3	-611
▁7	-612
▁9	-613
ins	-614
ish	-615
ood	-616
rin	-617
ted	-618
tip	-619
▁bl	-620
▁up	-621
ause	-622
blic	-623
fort	-624
ines	-625
▁eff	-626
▁fut	-627
▁pos	-628
▁val	-629
Track	-630
allen	-631
arity	-632
earch	-633
▁ener	-634
▁play	-635
▁team	-636
▁when	-637
▁press	-638
▁story	-639
▁techn	-640
▁today	-641
▁career	-642
▁future	-643
▁listen	-644
▁proble	-645
▁public	-646
▁scared	-647
▁strong	-648
▁negative	-649
▁pressure	-650
▁happiness	-651
▁interviews	-652
Un	-653
ax	-654
lo	-655
pt	-656
ue	-657
▁H	-658
...	-659
Cho	-660
amp	-661
ary	-662
duc	-663
ens	-664
ian	-665
mem	-666
ock	-667
ror	-668
ust	-669
ves	-670
▁ag	-671
▁ar	-672
▁di	-673
angu	-674
rior	-675
tive	-676
ture	-677
▁div	-678
▁exc	-679
▁fri	-680
▁gam	-681
▁try	-682
Break	-683
ating	-684
velop	-685
▁What	-686
▁long	-687
▁love	-688
▁phys	-689
▁rest	-690
Create	-691
member	-692
▁breat	-693
▁decis	-694
▁regul	-695
▁short	-696
▁solve	-697
▁enough	-698
▁expect	-699
▁friend	-700
▁multip	-701
▁achieve	-702
▁failure	-703
▁reading	-704
▁communic	-705
▁mistakes	-706
ationships	-707
Communicate	-708
▁confidence	-709
▁communication	-710
▁relationships	-711
ey	-712
no	-713
nt	-714
te	-715
▁C	-716
Con	-717
Res	-718
Set	-719
eep	-720
epl	-721
erc	-722
gth	-723
rol	-724
▁cu	-725
▁sy	-726
▁us	-727
Read	-728
Sure	-729
form	-730
ters	-731
▁all	-732
▁ang	-733
▁gen	-734
▁log	-735
▁min	-736
▁mod	-737
▁net	-738
▁rep	-739
▁set	-740
ality	-741
aries	-742
chedu	-743
erest	-744
ition	-745
times	-746
▁chat	-747
▁code	-748
▁diff	-749
▁insp	-750
▁more	-751
▁open	-752
▁perf	-753
▁pres	-754
▁real	-755
▁than	-756
Choose	-757
ection	-758
ucture	-759
▁after	-760
▁again	-761
▁excit	-762
▁langu	-763
▁peace	-764
▁relax	-765
▁trust	-766
▁while	-767
▁write	-768
chedule	-769
▁basics	-770
▁python	-771
▁slowly	-772
▁social	-773
▁weekly	-774
▁clearly	-775
▁develop	-776
▁meaning	-777
▁smaller	-778
▁interest	-779
▁positive	-780
▁decisions	-781
▁imagining	-782
▁regularly	-783
▁structure	-784
▁distracted	-785
▁motivation	-786
▁expectations	-787
▁conversations	-788
Ex	-789
au	-790
az	-791
dr	-792
if	-793
og	-794
vo	-795
▁N	-796
▁x	-797
You	-798
com	-799
edb	-800
idd	-801
ign	-802
▁12	-803
▁It	-804
▁hy	-805
▁ro	-806
Work	-807
ages	-808
ands	-809
ding	-810
ides	-811
stem	-812
ults	-813
vies	-814
void	-815
ward	-816
▁bad	-817
▁des	-818
▁eas	-819
▁has	-820
▁ide	-821
▁job	-822
▁own	-823
▁squ	-824
▁thr	-825
Write	-826
aring	-827
ately	-828
fully	-829
istic	-830
▁crit	-831
▁curi	-832
▁have	-833
▁many	-834
▁part	-835
▁poin	-836
▁rout	-837
Change	-838
edback	-839
▁games	-840
▁gradu	-841
▁hello	-842
▁night	-843
▁store	-844
▁teach	-845
Failure	-846
ability	-847
jection	-848
▁become	-849
▁create	-850
▁divide	-851
▁easily	-852
▁myself	-853
▁produc	-854
▁progra	-855
Remember	-856
Research	-857
▁friends	-858
▁healthy	-859
▁present	-860
▁someone	-861
▁stories	-862
▁through	-863
▁building	-864
▁feedback	-865
▁feelings	-866
▁starting	-867
▁perfection	-868
Ad	-869
bu	-870
eg	-871
oo	-872
ty	-873
zz	-874
▁=	-875
▁E	-876
▁J	-877
ava	-878
ays	-879
cri	-880
ice	-881
ket	-882
led	-883
nal	-884
ody	-885
ost	-886
oud	-887
ree	-888
ron	-889
uch	-890
ude	-891
▁er	-892
▁if	-893
▁ke	-894
▁no	-895
Comp	-896
Keep	-897
ases	-898
atit	-899
fine	-900
ices	-901
ling	-902
rain	-903
rors	-904
▁big	-905
▁mus	-906
▁rec	-907
▁tow	-908
▁wat	-909
ables	-910
aster	-911
erate	-912
iddle	-913
ivity	-914
onest	-915
▁dead	-916
▁does	-917
▁food	-918
▁hydr	-919
▁jour	-920
▁meet	-921
▁much	-922
▁pers	-923
▁puzz	-924
▁ques	-925
▁reac	-926
▁show	-927
ercise	-928
ically	-929
ipline	-930
rength	-931
▁examp	-932
▁exper	-933
▁habit	-934
▁logic	-935
▁prior	-936
atitude	-937
ination	-938
veryone	-939
▁action	-940
▁comple	-941
▁energy	-942
▁manage	-943
▁mental	-944
▁movies	-945
▁system	-946
▁toward	-947
▁clarity	-948
▁control	-949
▁explore	-950
▁mindful	-951
▁problem	-952
▁process	-953
▁routine	-954
▁solving	-955
▁without	-956
▁strength	-957
▁teamwork	-958
Understand	-959
▁carefully	-960
▁gradually	-961
▁gratitude	-962
▁questions	-963
▁sometimes	-964
▁technical	-965
▁physically	-966
▁consistently	-967
▁understanding	-968
Ac	-969
As	-970
In	-971
Te	-972
be	-973
bt	-974
by	-975
ci	-976
ds	-977
fl	-978
ia	-979
ll	-980
ns	-981
▁G	-982
▁R	-983
▁z	-984
Imp	-985
air	-986
arl	-987
ase	-988
cra	-989
cul	-990
eed	-991
erm	-992
ets	-993
ety	-994
ges	-995
ici	-996
ics	-997
ier	-998
kay	-999
nov	-1000
oup	-1001
ute	-1002
wor	-1003
▁10	-1004
▁14	-1005
▁25	-1006
▁9,	-1007
▁br	-1008
▁so	-1009
List	-1010
Repl	-1011
aris	-1012
athy	-1013
cept	-1014
elie	-1015
enti	-1016
isks	-1017
nect	-1018
olun	-1019
ones	-1020
ored	-1021
ower	-1022
rint	-1023
ront	-1024
rugg	-1025
vest	-1026
vise	-1027
ways	-1028
▁How	-1029
▁acc	-1030
▁att	-1031
▁beh	-1032
▁bus	-1033
▁cho	-1034
▁col	-1035
▁del	-1036
▁emp	-1037
▁get	-1038
▁jud	-1039
▁laz	-1040
▁med	-1041
▁mor	-1042
▁pur	-1043
▁sal	-1044
▁see	-1045
▁tal	-1046
▁tra	-1047
▁tri	-1048
▁web	-1049
alian	-1050
angle	-1051
crast	-1052
enses	-1053
erent	-1054
gging	-1055
ially	-1056
iding	-1057
imals	-1058
itize	-1059
ledge	-1060
lines	-1061
mming	-1062
osity	-1063
rustr	-1064
ument	-1065
▁back	-1066
▁down	-1067
▁fail	-1068
▁fear	-1069
▁inst	-1070
▁lead	-1071
▁mach	-1072
▁make	-1073
▁math	-1074
▁only	-1075
▁past	-1076
▁plus	-1077
▁sess	-1078
▁well	-1079
▁wins	-1080
▁zone	-1081
arison	-1082
riting	-1083
ything	-1084
▁alone	-1085
▁avoid	-1086
▁dream	-1087
▁exist	-1088
▁great	-1089
▁group	-1090
▁ideas	-1091
▁innov	-1092
▁makes	-1093
▁means	-1094
▁music	-1095
▁power	-1096
▁reloc	-1097
▁risks	-1098
▁sides	-1099
▁smart	-1100
▁space	-1101
▁steps	-1102
▁think	-1103
▁times	-1104
▁using	-1105
▁world	-1106
Challen	-1107
Replace	-1108
comfort	-1109
inating	-1110
working	-1111
▁Python	-1112
▁advent	-1113
▁always	-1114
▁breaks	-1115
▁breath	-1116
▁brings	-1117
▁calmly	-1118
▁chance	-1119
▁change	-1120
▁compet	-1121
▁effort	-1122
▁errors	-1123
▁honest	-1124
▁openly	-1125
▁person	-1126
▁points	-1127
▁square	-1128
▁strugg	-1129
▁values	-1130
Learning	-1131
▁challen	-1132
▁comfort	-1133
▁empathy	-1134
▁feeling	-1135
▁puzzles	-1136
▁respect	-1137
▁results	-1138
▁support	-1139
Challenge	-1140
▁examples	-1141
▁expenses	-1142
▁generate	-1143
▁improves	-1144
▁multiply	-1145
▁procrast	-1146
▁schedule	-1147
▁sessions	-1148
▁stronger	-1149
▁studying	-1150
▁curiosity	-1151
▁deadlines	-1152
▁different	-1153
▁financial	-1154
▁interests	-1155
▁knowledge	-1156
▁languages	-1157
▁productiv	-1158
▁rejection	-1159
▁activities	-1160
▁consistent	-1161
▁discipline	-1162
▁networking	-1163
▁relocation	-1164
▁consistency	-1165
▁mindfulness	-1166
▁perfectionism	-1167
++	-1168
0%	-1169
3.	-1170
Do	-1171
LP	-1172
PI	-1173
Sm	-1174
Sp	-1175
Us	-1176
bs	-1177
yz	-1178
▁B	-1179
▁F	-1180
Lim	-1181
Med	-1182
Nut	-1183
Pro	-1184
The	-1185
ams	-1186
ats	-1187
ave	-1188
bra	-1189
cep	-1190
cre	-1191
ebr	-1192
eck	-1193
her	-1194
igh	-1195
ink	-1196
mit	-1197
ogy	-1198
ols	-1199
ory	-1200
oss	-1201
oth	-1202
per	-1203
tit	-1204
ual	-1205
vir	-1206
▁5.	-1207
▁6,	-1208
▁Do	-1209
▁ML	-1210
▁co	-1211
▁cy	-1212
▁fi	-1213
▁sw	-1214
Good	-1215
Redu	-1216
Refl	-1217
Rest	-1218
Talk	-1219
They	-1220
aste	-1221
auti	-1222
come	-1223
dget	-1224
eter	-1225
fess	-1226
icul	-1227
ives	-1228
ject	-1229
lish	-1230
obby	-1231
ocol	-1232
ooks	-1233
ount	-1234
pace	-1235
pose	-1236
ract	-1237
reci	-1238
resh	-1239
rink	-1240
rong	-1241
rove	-1242
side	-1243
sues	-1244
teer	-1245
term	-1246
ules	-1247
ural	-1248
utom	-1249
▁API	-1250
▁aff	-1251
▁ask	-1252
▁doc	-1253
▁fre	-1254
▁fru	-1255
▁hol	-1256
▁hur	-1257
▁joy	-1258
▁low	-1259
▁met	-1260
▁now	-1261
▁ret	-1262
▁sav	-1263
▁tru	-1264
▁vis	-1265
▁who	-1266
Limit	-1267
Nutri	-1268
Pause	-1269
Small	-1270
Trust	-1271
acing	-1272
aging	-1273
amily	-1274
ature	-1275
cepts	-1276
cript	-1277
ction	-1278
elebr	-1279
gebra	-1280
icism	-1281
iving	-1282
ology	-1283
other	-1284
titas	-1285
uring	-1286
urity	-1287
viron	-1288
works	-1289
▁area	-1290
▁body	-1291
▁cons	-1292
▁ever	-1293
▁find	-1294
▁gain	-1295
▁goal	-1296
▁hear	-1297
▁home	-1298
▁just	-1299
▁keep	-1300
▁lack	-1301
▁lazy	-1302
▁less	-1303
▁loop	-1304
▁meas	-1305
▁mode	-1306
▁move	-1307
▁okay	-1308
▁root	-1309
▁solu	-1310
▁stop	-1311
▁talk	-1312
▁weak	-1313
Listen	-1314
Reduce	-1315
Revise	-1316
ecting	-1317
ership	-1318
idence	-1319
▁angry	-1320
▁block	-1321
▁clear	-1322
▁cloud	-1323
▁datab	-1324
▁early	-1325
▁fresh	-1326
▁front	-1327
▁happy	-1328
▁hobby	-1329
▁parts	-1330
▁resil	-1331
▁rules	-1332
▁shows	-1333
▁sport	-1334
▁works	-1335
Improve	-1336
Reflect	-1337
autiful	-1338
fession	-1339
ocolate	-1340
pportun	-1341
reating	-1342
▁budget	-1343
▁deeply	-1344
▁frustr	-1345
▁inspir	-1346
▁invest	-1347
▁issues	-1348
▁lately	-1349
▁making	-1350
▁online	-1351
▁stands	-1352
▁taking	-1353
Nutrient	-1354
elebrate	-1355
formance	-1356
olunteer	-1357
▁another	-1358
▁backend	-1359
▁choices	-1360
▁complex	-1361
▁environ	-1362
▁focused	-1363
▁forward	-1364
▁italian	-1365
▁matters	-1366
▁outside	-1367
▁purpose	-1368
▁quality	-1369
▁setting	-1370
▁startup	-1371
▁talking	-1372
▁teaches	-1373
titasking	-1374
▁business	-1375
▁concepts	-1376
▁exciting	-1377
▁managing	-1378
▁multiple	-1379
▁opportun	-1380
▁patience	-1381
▁peaceful	-1382
▁powerful	-1383
▁problems	-1384
▁abilities	-1385
▁adventure	-1386
▁breathing	-1387
▁criticism	-1388
▁	-1389
e	-1390
i	-1391
a	-1392
t	-1393
o	-1394
s	-1395
n	-1396
r	-1397
l	-1398
u	-1399
d	-1400
c	-1401
h	-1402
m	-1403
y	-1404
f	-1405
g	-1406
,	-1407
p	-1408
.	-1409
w	-1410
b	-1411
k	-1412
v	-1413
?	-1414
!	-1415
x	-1416
'	-1417
I	-1418
S	-1419
T	-1420
P	-1421
Y	-1422
C	-1423
q	-1424
j	-1425
A	-1426
R	-1427
z	-1428
F	-1429
D	-1430
L	-1431
B	-1432
M	-1433
W	-1434
5	-1435
1	-1436
2	-1437
E	-1438
U	-1439
-	-1440
H	-1441
N	-1442
0	-1443
4	-1444
G	-1445
3	-1446
8	-1447
6	-1448
O	-1449
+	-1450
9	-1451
7	-1452
J	-1453
%	-1454
V	-1455
(	-1456
)	-1457
=	-1458
K	-1459
Q	-1460
"	-1461
:	-1462
ह	-1463
ç	-1464
स	-1465
*	-1466
¿	-1467
á	-1468
ó	-1469
ँ	-1470
ं	-1471
क	-1472
त	-1473
म	-1474
ा	-1475
े	-1476
ै	-1477
ो	-1478
—	-1479
/	-1480
<	-1481
>	-1482
¡	-1483
ì	-1484
í	-1485
ñ	-1486
द	-1487
न	-1488
ब	-1489
ल	-1490
ि	-1491
ी	-1492
ू	-1493
्	-1494
।	-1495
’	-1496
